<PAD>	0
<SOS>	0
<EOS>	0
<UNK>	0
▁_	-1.23108
▁	-3.49018
.	-4.0344
s	-4.50756
▁zn	-4.54706
▁bfd	-4.69414
▁get	-4.89224
d	-4.95376
▁0	-4.98049
▁elf	-4.9979
▁set	-5.22037
▁file	-5.3558
▁print	-5.3797
6	-5.38648
2	-5.4112
▁p	-5.41532
▁z	-5.43661
▁type	-5.45456
▁s	-5.52997
▁is	-5.55739
▁c	-5.57287
▁part	-5.5905
▁col	-5.60536
▁list	-5.62115
▁node	-5.64723
▁name	-5.6568
▁ctf	-5.68527
▁add	-5.71181
8	-5.72191
▁init	-5.73411
11	-5.78784
4	-5.80254
▁gr	-5.80522
9	-5.85597
▁to	-5.86458
i	-5.86686
▁parse	-5.89274
▁d	-5.89568
▁free	-5.90902
▁section	-5.92152
▁ev	-5.95867
e	-5.97299
c	-5.98726
5	-5.99419
▁const	-6.00009
prop	-6.01244
r	-6.01516
▁string	-6.02174
▁symbol	-6.02448
▁info	-6.02707
▁hash	-6.03719
▁r	-6.03756
▁gl	-6.03993
▁find	-6.05517
▁line	-6.05716
▁write	-6.06326
v	-6.07259
ecs	-6.08888
▁x	-6.09583
▁output	-6.12124
p	-6.14182
▁do	-6.14554
ed	-6.17577
10	-6.19275
▁read	-6.19491
▁debug	-6.22159
ev	-6.24748
▁link	-6.25664
▁ep	-6.26769
▁reloc	-6.27807
▁in	-6.28478
▁char	-6.3351
▁m	-6.3461
▁check	-6.35504
t	-6.38656
▁size	-6.40249
▁make	-6.41703
▁re	-6.42406
15	-6.4475
12	-6.45659
▁state	-6.45678
17	-6.46846
0	-6.49013
get	-6.52055
▁i	-6.52824
▁copy	-6.52931
ra	-6.57915
set	-6.59843
core	-6.63272
m	-6.64928
▁ei	-6.6498
▁buffer	-6.64985
▁e	-6.67099
▁next	-6.67474
er	-6.68168
▁display	-6.68528
▁create	-6.69201
3	-6.698
l	-6.71176
13	-6.71383
1	-6.71422
16	-6.71844
▁v	-6.71878
▁zl	-6.72555
64	-6.73689
14	-6.73727
▁search	-6.74206
▁value	-6.74705
▁box	-6.75407
▁error	-6.75619
▁tree	-6.75729
▁array	-6.76617
▁a	-6.7706
▁from	-6.77122
list	-6.77133
f	-6.77274
▁str	-6.78429
b	-6.78544
string	-6.79142
ing	-6.79414
▁decode	-6.8003
▁coff	-6.80236
▁dump	-6.80427
▁process	-6.80594
a	-6.80974
o	-6.81961
▁and	-6.82133
▁entry	-6.82189
▁open	-6.83617
▁input	-6.83834
▁internal	-6.84156
▁lookup	-6.85192
▁g	-6.85203
▁f	-6.85568
line	-6.85817
n	-6.88149
▁table	-6.88316
▁pkc	-6.88882
▁command	-6.89075
7	-6.90392
▁un	-6.90633
▁rl	-6.91409
bitset	-6.92146
▁n	-6.93942
u	-6.94344
▁cmp	-6.94476
▁remove	-6.9471
▁b	-6.95358
node	-6.95411
▁new	-6.96604
name	-6.96647
▁op	-6.96649
86	-6.97664
▁header	-6.97856
▁l	-6.98359
y	-6.98447
▁for	-7.02819
▁rk	-7.04019
k	-7.04068
▁window	-7.04905
32	-7.05869
str	-7.06716
▁or	-7.0733
▁no	-7.08127
▁start	-7.09174
▁dir	-7.09215
▁index	-7.09771
do	-7.10542
▁out	-7.10593
▁pr	-7.1176
▁code	-7.12075
▁bitset	-7.1224
▁number	-7.12438
▁insert	-7.13382
▁at	-7.13627
▁sframe	-7.15245
▁item	-7.15367
▁t	-7.15777
▁match	-7.16664
output	-7.17852
file	-7.18776
▁arg	-7.19113
x	-7.19733
▁expand	-7.19937
environment	-7.2093
▁swap	-7.21027
ok	-7.21504
▁int	-7.22054
▁close	-7.22646
▁stat	-7.24295
▁text	-7.25323
▁dynamic	-7.25778
font	-7.25961
▁archive	-7.2598
▁format	-7.26194
18	-7.26355
▁mode	-7.28077
▁field	-7.28831
g	-7.28921
▁append	-7.28978
▁compare	-7.29771
▁clear	-7.30012
pl	-7.30991
▁func	-7.31383
▁word	-7.31497
table	-7.31617
troff	-7.32056
▁alloc	-7.32188
ep	-7.3242
▁end	-7.32912
▁map	-7.33126
▁filename	-7.34056
char	-7.3435
search	-7.34352
▁variable	-7.34699
▁function	-7.34735
▁reg	-7.3535
dir	-7.35544
add	-7.35798
▁cmd	-7.35918
▁path	-7.36385
▁handler	-7.36448
▁pred	-7.36522
▁data	-7.3685
position	-7.36872
▁width	-7.37105
▁yy	-7.37178
nu	-7.38479
▁env	-7.38945
▁sort	-7.39369
19	-7.39377
▁mark	-7.40867
▁sym	-7.4101
▁merge	-7.42305
▁flags	-7.43285
▁delete	-7.43441
▁epkc	-7.43476
▁count	-7.43626
▁option	-7.43855
▁comp	-7.43864
▁opt	-7.43893
▁generic	-7.44566
▁h	-7.44783
▁rule	-7.44824
▁demangle	-7.46059
symbol	-7.46322
▁iterator	-7.47578
▁object	-7.47803
in	-7.47807
▁color	-7.48229
▁contents	-7.49191
▁record	-7.50675
at	-7.5215
▁save	-7.52541
▁linked	-7.53017
▁symbols	-7.53072
▁directory	-7.53875
macro	-7.54073
▁pattern	-7.54363
▁znk	-7.5563
▁by	-7.5569
be	-7.57223
▁stack	-7.58881
▁update	-7.59012
reference	-7.5923
▁64	-7.59276
▁var	-7.60495
▁nx	-7.6075
compute	-7.61034
copy	-7.61056
20	-7.61421
▁erk	-7.61499
an	-7.61912
▁empty	-7.62495
▁mk	-7.62611
box	-7.62872
▁block	-7.63281
▁stab	-7.63312
▁space	-7.64078
▁note	-7.64349
▁skip	-7.64354
make	-7.6474
▁with	-7.65959
▁bash	-7.65988
▁offset	-7.6599
▁time	-7.66029
init	-7.66353
▁key	-7.67273
▁define	-7.674
to	-7.68238
▁temp	-7.68307
▁push	-7.68491
▁put	-7.69509
▁stats	-7.69543
▁build	-7.70089
▁version	-7.70089
▁reset	-7.70195
▁label	-7.70391
▁all	-7.70607
▁flush	-7.70816
▁token	-7.71363
▁pp	-7.71584
▁ext	-7.7168
▁finish	-7.71775
print	-7.71899
le	-7.72232
able	-7.72347
input	-7.72522
21	-7.72857
▁muscle	-7.73581
▁address	-7.73581
▁last	-7.73607
h	-7.73658
▁history	-7.73738
ion	-7.73866
▁scan	-7.74233
ent	-7.74438
▁sub	-7.75031
▁default	-7.75581
▁io	-7.76174
▁class	-7.76253
▁sections	-7.76425
or	-7.76524
int	-7.76819
▁of	-7.77014
bit	-7.77015
▁compute	-7.7711
▁dyn	-7.77311
▁sparse	-7.7772
▁prefix	-7.78046
▁load	-7.78242
hash	-7.78772
▁group	-7.79939
386	-7.79993
▁long	-7.80006
read	-7.80094
▁decoder	-7.80384
w	-7.80775
▁pop	-7.81913
charinfo	-7.82115
▁first	-7.8214
▁non	-7.82757
is	-7.82779
▁macro	-7.83741
hunits	-7.83743
▁symtab	-7.84064
▁ppc	-7.84296
▁buf	-7.84708
re	-7.84909
▁relocs	-7.85207
▁bytes	-7.85421
▁tag	-7.85572
▁u	-7.85623
▁args	-7.86168
vunits	-7.86364
▁user	-7.86698
22	-7.86874
▁ptable	-7.87019
open	-7.88086
▁quote	-7.883
▁1	-7.88334
buf	-7.90083
▁shell	-7.90817
▁fatal	-7.91163
tab	-7.91477
▁num	-7.92558
lookup	-7.92559
▁fd	-7.92775
▁gen	-7.93066
▁terminal	-7.93208
▁current	-7.93214
▁argmatch	-7.93243
▁arc	-7.93337
▁restore	-7.93476
▁mb	-7.9373
▁w	-7.939
▁if	-7.94329
▁special	-7.94628
path	-7.9501
color	-7.95048
▁frame	-7.95647
▁may	-7.95649
▁execute	-7.95767
▁run	-7.95871
▁grow	-7.95914
▁lbitset	-7.95923
▁register	-7.96
con	-7.964
simple	-7.97587
ar	-7.98071
tion	-7.9814
▁member	-7.98148
▁context	-7.98148
▁rev	-7.98149
▁fixup	-7.98162
▁sha	-7.98198
▁expr	-7.9837
▁sorted	-7.98533
▁help	-7.9859
▁pi	-7.98628
▁spec	-7.98671
rec	-7.98897
▁options	-7.99171
▁signal	-7.9987
al	-7.99947
it	-8.00352
▁vi	-8.00373
▁local	-8.00436
▁pe	-8.00677
▁change	-8.00694
▁show	-8.00721
▁cleanup	-8.00848
▁up	-8.00985
▁escape	-8.01083
ize	-8.01629
▁df	-8.01639
▁font	-8.01997
object	-8.02893
▁attr	-8.03344
▁assign	-8.03546
▁send	-8.03594
alloc	-8.0423
▁one	-8.04805
▁cache	-8.05326
cmp	-8.0546
▁eh	-8.05989
▁xstrcoll	-8.06046
lang	-8.06048
▁initialize	-8.06055
▁quotearg	-8.06067
▁multi	-8.06083
un	-8.06085
▁fn	-8.06954
▁obj	-8.06961
▁id	-8.07565
▁exp	-8.07686
glyph	-8.0826
▁gram	-8.08825
▁api	-8.08832
▁encode	-8.08889
▁target	-8.08952
▁bind	-8.09139
▁handle	-8.09161
▁gc	-8.09704
▁arch	-8.09729
on	-8.09911
▁sys	-8.10196
ic	-8.10427
▁style	-8.10931
ide	-8.11234
place	-8.11513
▁valid	-8.11657
▁matches	-8.11767
▁length	-8.11915
▁term	-8.12078
▁fill	-8.12213
▁glob	-8.12351
▁xattr	-8.12373
▁exec	-8.12662
es	-8.13084
ate	-8.13186
▁status	-8.13205
▁action	-8.13469
▁sig	-8.13704
ify	-8.14138
▁program	-8.14622
▁raw	-8.14628
st	-8.15179
tic	-8.15274
▁warning	-8.15344
htab	-8.16131
time	-8.16813
up	-8.17416
▁machine	-8.17652
▁mem	-8.17654
mode	-8.17688
debug	-8.17694
error	-8.1772
▁strcmp	-8.17785
▁gz	-8.18077
▁null	-8.18161
▁chars	-8.1856
▁pos	-8.18618
est	-8.19404
▁position	-8.19502
▁fre	-8.20473
space	-8.20513
▁tg	-8.20677
▁report	-8.20777
▁skel	-8.20777
▁dedup	-8.20778
▁segment	-8.20779
▁edit	-8.20786
▁wordsplit	-8.20796
▁complete	-8.20931
▁begin	-8.21131
▁simple	-8.21484
▁de	-8.21508
th	-8.21517
tri	-8.2186
▁ws	-8.22255
ation	-8.23288
▁reference	-8.23327
▁win	-8.2344
▁byte	-8.2378
pex	-8.23922
▁tar	-8.23963
▁builtin	-8.24003
▁acl	-8.24055
index	-8.24244
▁extract	-8.24369
▁pkci	-8.25105
▁log	-8.25132
ch	-8.25184
▁common	-8.25737
24	-8.25767
▁job	-8.26183
unit	-8.26727
▁slurp	-8.27336
▁xheader	-8.27336
▁lineno	-8.27337
390	-8.27338
▁diversion	-8.27341
▁o	-8.27577
hex	-8.27678
cmd	-8.27691
ol	-8.29502
23	-8.29558
▁range	-8.29636
▁dev	-8.29911
ow	-8.30651
▁proc	-8.30767
▁correct	-8.30785
▁destroy	-8.30785
▁grammar	-8.30785
▁calc	-8.30788
tbl	-8.30789
itali	-8.30862
▁lines	-8.30925
▁resize	-8.30932
▁ctx	-8.30982
hyphen	-8.3115
token	-8.31248
ei	-8.31258
▁safe	-8.31372
▁pair	-8.31513
▁argument	-8.31963
▁attribute	-8.33197
▁files	-8.33554
▁level	-8.34356
▁unwind	-8.34356
ary	-8.34428
▁bound	-8.34428
▁requestv	-8.3448
▁filter	-8.34533
ap	-8.34597
▁ar	-8.34745
▁ignore	-8.34878
▁ch	-8.3493
▁exit	-8.35125
el	-8.35607
▁case	-8.36521
▁core	-8.36874
▁ref	-8.37152
▁parser	-8.37268
▁jump	-8.3806
▁errno	-8.3806
▁memory	-8.3806
▁select	-8.3806
▁source	-8.3806
▁hook	-8.3806
▁fts	-8.38068
▁include	-8.38081
▁aarch	-8.38104
link	-8.38256
tprint	-8.38754
def	-8.38819
▁eq	-8.38873
▁prev	-8.38901
put	-8.39343
▁ps	-8.39789
▁dwarf	-8.41906
▁fail	-8.41906
▁metrics	-8.41906
▁parameter	-8.41906
▁plugin	-8.41906
▁splay	-8.41906
▁volume	-8.41906
▁inflate	-8.41906
graph	-8.41907
▁utf	-8.41909
▁elt	-8.41912
▁percent	-8.41916
▁try	-8.41963
▁hol	-8.41978
▁unw	-8.4207
src	-8.42506
▁warn	-8.42586
define	-8.42669
keyword	-8.42711
top	-8.42785
width	-8.42809
▁page	-8.42977
en	-8.43159
▁zero	-8.43242
map	-8.43304
▁completion	-8.44767
size	-8.44799
ive	-8.45075
▁has	-8.45493
▁as	-8.45685
▁element	-8.45906
▁screen	-8.45906
▁private	-8.45906
▁tab	-8.45914
▁trace	-8.45922
ips	-8.45938
▁vma	-8.46016
▁wc	-8.46344
▁printf	-8.46668
▁headers	-8.46728
process	-8.47061
len	-8.47562
▁argv	-8.47736
▁regex	-8.47933
type	-8.48113
info	-8.49633
▁convert	-8.50072
▁watchpoint	-8.50072
▁echo	-8.50073
▁emit	-8.50073
▁callback	-8.50081
errarg	-8.50084
▁brace	-8.50092
▁region	-8.50213
ct	-8.50327
▁pipe	-8.50712
▁usage	-8.5096
num	-8.50975
▁it	-8.5098
▁unit	-8.51129
▁split	-8.51236
tag	-8.51254
out	-8.51327
▁back	-8.51362
script	-8.51812
▁base	-8.53588
▁glyph	-8.53856
▁suffix	-8.5442
ature	-8.5442
▁install	-8.54421
▁deflate	-8.54434
sp	-8.54499
▁dfa	-8.54606
▁call	-8.54662
▁breakpoint	-8.54778
▁reverse	-8.5492
▁abort	-8.55063
▁st	-8.55373
▁tty	-8.55508
tfont	-8.55812
text	-8.55965
▁max	-8.57597
statem	-8.58788
▁canvas	-8.58966
▁obstack	-8.58966
▁struct	-8.58966
▁wait	-8.58966
▁derivation	-8.58969
▁location	-8.58984
▁indexof	-8.5905
▁test	-8.59117
▁message	-8.59193
statemi	-8.59253
▁adjust	-8.59489
▁compress	-8.59591
▁setup	-8.59822
end	-8.59956
▁area	-8.60239
j	-8.60521
of	-8.60909
options	-8.60977
realloc	-8.60996
▁cb	-8.61374
ec	-8.61485
max	-8.6177
▁not	-8.61967
ge	-8.6209
▁realloc	-8.62239
▁len	-8.62559
▁di	-8.62615
id	-8.62742
ma	-8.6355
▁fix	-8.63725
▁after	-8.63728
▁canonical	-8.63728
▁forward	-8.63728
▁compile	-8.63728
possible	-8.63729
awk	-8.63731
▁kill	-8.63743
▁iter	-8.63841
▁store	-8.63857
▁se	-8.63978
▁replace	-8.64
▁strtab	-8.64053
▁fetch	-8.64121
fm	-8.64153
▁short	-8.6428
▁ifile	-8.64405
▁move	-8.64593
hdr	-8.65082
arg	-8.6521
ascii	-8.65534
append	-8.656
check	-8.65644
▁ea	-8.65688
▁ring	-8.65933
substring	-8.66291
▁hdr	-8.66843
▁per	-8.67382
ound	-8.68372
sect	-8.68699
▁dummy	-8.68728
▁entries	-8.68728
▁equal	-8.68728
▁integer	-8.68728
▁reduce	-8.68728
▁assignment	-8.68747
op	-8.68778
▁global	-8.68788
plus	-8.68842
and	-8.68866
▁unlink	-8.68868
▁prompt	-8.68979
row	-8.69012
▁real	-8.69044
▁tm	-8.69162
▁column	-8.69468
▁concat	-8.69472
▁delim	-8.69724
▁scroll	-8.69803
data	-8.70406
flush	-8.70765
case	-8.70825
special	-8.70878
▁min	-8.70897
next	-8.70905
ref	-8.7104
▁al	-8.7114
▁err	-8.71164
▁stream	-8.7131
▁rel	-8.71717
oset	-8.7184
▁exclude	-8.73991
▁tail	-8.73991
▁traverse	-8.73991
apply	-8.73991
▁indent	-8.73995
▁transform	-8.74001
▁only	-8.74005
▁backup	-8.74028
vertical	-8.74044
▁enum	-8.74165
▁arm	-8.74173
late	-8.74373
▁conflicts	-8.74453
env	-8.74485
▁follow	-8.74602
▁binary	-8.74602
▁bool	-8.74776
gmatch	-8.74838
▁alt	-8.75142
▁pc	-8.75262
▁ino	-8.75296
positions	-8.75434
▁bc	-8.75556
printf	-8.75864
▁lex	-8.7587
▁hasher	-8.75954
write	-8.76181
sort	-8.76458
entry	-8.76471
free	-8.76477
state	-8.76661
▁left	-8.76897
mo	-8.77627
pch	-8.77644
▁abbrev	-8.77812
ut	-8.77821
▁ptr	-8.77983
z	-8.78647
▁def	-8.78881
var	-8.78908
lf	-8.7918
▁addr	-8.79301
▁encoding	-8.79546
▁relative	-8.79546
▁xml	-8.79549
▁template	-8.79598
▁goto	-8.79632
▁andn	-8.80307
ies	-8.80383
▁blank	-8.80563
▁diff	-8.80749
▁msg	-8.80943
▁hist	-8.81096
▁dstr	-8.81282
▁quoted	-8.81377
seq	-8.81385
ly	-8.81393
coder	-8.81909
block	-8.8221
word	-8.82237
▁unicode	-8.82248
left	-8.82269
code	-8.82285
func	-8.82285
common	-8.82302
status	-8.82309
▁names	-8.8255
▁typed	-8.82897
erk	-8.83155
▁row	-8.83444
▁sec	-8.83705
reg	-8.83963
om	-8.83998
ell	-8.84868
▁point	-8.85299
▁switch	-8.85393
▁annotation	-8.85429
▁discard	-8.85429
join	-8.8544
▁shopt	-8.85442
▁trap	-8.85453
▁symlink	-8.85529
▁step	-8.8553
▁defer	-8.85679
▁mtime	-8.85794
▁dumpdir	-8.85941
▁dup	-8.86094
▁newline	-8.86146
▁upper	-8.86905
▁tmp	-8.86969
▁assoc	-8.8699
▁readline	-8.86993
▁te	-8.87158
ve	-8.87313
▁cu	-8.87614
break	-8.87754
▁over	-8.87901
▁wrap	-8.881
▁ver	-8.88104
▁signals	-8.88126
26	-8.88138
off	-8.88231
stream	-8.88516
▁break	-8.88526
ash	-8.89063
plt	-8.89304
opt	-8.8954
▁ok	-8.89652
▁separat	-8.90395
▁environ	-8.91667
composite	-8.91679
▁assert	-8.91679
▁complain	-8.91679
asciify	-8.91679
▁cursor	-8.91679
▁order	-8.91685
▁layout	-8.91685
▁posix	-8.917
▁mod	-8.91715
▁old	-8.91721
▁uid	-8.91743
▁newfunc	-8.91785
▁allocate	-8.91839
aris	-8.92077
▁mouse	-8.92204
▁pending	-8.92204
▁eval	-8.92425
ux	-8.92429
▁rename	-8.92871
▁sh	-8.92977
▁ia	-8.92996
▁bracket	-8.93465
▁alias	-8.93465
▁trans	-8.93608
▁tables	-8.94033
all	-8.9405
▁locale	-8.94196
▁sv	-8.94576
comp	-8.94777
▁links	-8.94915
epkc	-8.94954
close	-8.95133
same	-8.95153
kern	-8.95154
ped	-8.95175
unicode	-8.9518
merge	-8.95248
mark	-8.95251
err	-8.95381
▁nodes	-8.95398
▁epkci	-8.95849
▁j	-8.96043
▁ab	-8.96045
▁tr	-8.96173
linear	-8.96428
▁syms	-8.97198
▁param	-8.97306
▁fields	-8.97633
▁on	-8.97862
ue	-8.98086
▁final	-8.98311
▁clean	-8.98318
divert	-8.98345
▁backward	-8.98345
▁control	-8.98345
▁uniqstr	-8.98345
evaluate	-8.98345
▁kind	-8.98345
definition	-8.98346
▁near	-8.98346
▁down	-8.98347
▁bad	-8.98352
draw	-8.98361
▁translate	-8.98363
▁net	-8.98438
um	-8.98446
▁aux	-8.98476
▁uint	-8.98493
tacc	-8.98494
▁eof	-8.98547
▁atime	-8.98621
▁prepare	-8.98686
▁safer	-8.98842
▁request	-8.98893
lower	-8.98896
▁getopt	-8.99216
▁ctime	-8.99252
cent	-8.99833
▁loc	-8.99857
▁cached	-9.0018
▁pre	-9.00262
▁completions	-9.003
▁seek	-9.00699
▁eii	-9.00816
one	-9.00964
27	-9.01027
▁pk	-9.01327
di	-9.01834
mask	-9.02276
sym	-9.02358
wrap	-9.02366
number	-9.02407
clear	-9.02411
epkci	-9.02425
▁vars	-9.02993
▁dot	-9.03522
tx	-9.04092
▁src	-9.04496
▁use	-9.04506
ack	-9.04655
mount	-9.05488
▁delay	-9.05488
▁extension	-9.05488
▁quoting	-9.05488
▁collect	-9.05489
▁ielr	-9.05489
▁mach	-9.0549
▁parent	-9.05492
▁extended	-9.05494
▁expression	-9.05497
▁slc	-9.055
scanner	-9.05504
arator	-9.05513
ils	-9.05521
▁tilde	-9.05671
▁gid	-9.05678
▁static	-9.05689
▁cost	-9.05799
▁slot	-9.05855
ator	-9.06034
iii	-9.06164
▁double	-9.06335
stor	-9.06348
dbreak	-9.06361
▁signed	-9.06457
▁subst	-9.06573
hmo	-9.0669
atch	-9.06694
▁flag	-9.06748
▁pointer	-9.06982
▁xstr	-9.07231
form	-9.07432
25	-9.07484
▁para	-9.07541
▁changed	-9.07552
▁fe	-9.07926
symbols	-9.07935
▁ck	-9.08516
match	-9.08909
▁mbs	-9.08998
▁kern	-9.09035
▁same	-9.09035
db	-9.09053
real	-9.09402
▁abs	-9.09593
▁dis	-9.09712
malloc	-9.09858
sub	-9.09987
over	-9.10021
bsd	-9.10059
field	-9.10084
dump	-9.10095
128	-9.10185
▁ascii	-9.10288
com	-9.10357
▁keyword	-9.11624
▁hex	-9.12571
▁cv	-9.12614
▁del	-9.12748
pro	-9.12756
▁stop	-9.12944
direction	-9.13004
▁disp	-9.13177
overstrike	-9.13181
▁duplicate	-9.13181
▁hilite	-9.13181
▁method	-9.13181
▁queue	-9.13181
▁reduction	-9.13181
▁toggle	-9.13181
▁variant	-9.13181
▁other	-9.13181
▁prepend	-9.13181
▁export	-9.13181
▁flip	-9.13181
▁arith	-9.13181
▁tape	-9.13181
interp	-9.13182
▁disassemble	-9.13182
declare	-9.13182
▁mapping	-9.13183
▁enable	-9.13184
▁mca	-9.13185
▁fmtstream	-9.13189
▁any	-9.13195
▁timespec	-9.13208
▁self	-9.1321
lig	-9.13247
▁cond	-9.1326
thread	-9.13286
span	-9.13355
▁perm	-9.13401
format	-9.13403
cl	-9.13424
tex	-9.13503
▁round	-9.13582
et	-9.13606
▁relocate	-9.13818
▁numeric	-9.13837
acc	-9.13874
▁undo	-9.1399
▁loop	-9.14007
▁construct	-9.14098
▁character	-9.14112
▁xor	-9.14119
sync	-9.14155
▁sol	-9.14213
▁align	-9.14613
ings	-9.14793
▁val	-9.15372
▁dictionary	-9.15684
fin	-9.15887
pat	-9.16093
▁bsd	-9.16562
▁ip	-9.16624
▁values	-9.17597
▁off	-9.17617
column	-9.18064
stat	-9.18253
log	-9.18403
label	-9.18409
push	-9.1841
count	-9.18416
pos	-9.18434
remove	-9.18444
find	-9.19148
▁hyphen	-9.20614
units	-9.2075
ng	-9.20829
digit	-9.21478
▁propert	-9.21482
▁bucket	-9.21514
▁custom	-9.21514
▁eppkc	-9.21514
▁exists	-9.21514
▁indirect	-9.21514
▁modifier	-9.21514
▁release	-9.21514
▁visibility	-9.21514
▁chunk	-9.21514
▁failure	-9.21514
▁comment	-9.21514
▁endian	-9.21515
▁visit	-9.21515
▁prog	-9.21517
▁dirfd	-9.21521
▁strip	-9.21524
▁crc	-9.21538
pass	-9.21539
▁subexp	-9.21552
▁paste	-9.21555
▁dict	-9.21557
▁big	-9.21581
▁unquote	-9.21585
▁thr	-9.21643
center	-9.21697
▁logfile	-9.21723
▁fprintf	-9.2177
▁syntax	-9.21947
▁states	-9.22266
▁date	-9.2239
▁dw	-9.22664
▁unset	-9.22972
▁inode	-9.2308
▁peek	-9.23089
extend	-9.23213
▁printable	-9.23678
▁shift	-9.23957
ment	-9.24135
▁charset	-9.24147
ast	-9.24168
▁dep	-9.24302
▁ranges	-9.24418
▁commands	-9.24502
scr	-9.25095
ix	-9.25105
ready	-9.25377
▁mask	-9.25422
▁sc	-9.25541
seek	-9.25604
▁work	-9.25664
lex	-9.25845
▁cl	-9.25962
▁plt	-9.26031
works	-9.2625
positiond	-9.26301
ice	-9.26375
parse	-9.27077
zero	-9.27469
argument	-9.27475
class	-9.27477
obj	-9.27487
temp	-9.27491
scan	-9.27514
array	-9.27519
start	-9.28004
▁watch	-9.28132
ax	-9.30277
▁initial	-9.30575
▁deta	-9.30577
▁body	-9.30605
▁counterexample	-9.30605
▁heredoc	-9.30605
▁leaf	-9.30605
▁timestamp	-9.30605
▁protect	-9.30605
▁diag	-9.30605
▁riscv	-9.30605
▁ppkc	-9.30606
▁full	-9.30607
▁single	-9.30607
▁menu	-9.30608
▁requestsv	-9.30608
▁rmt	-9.30611
▁directive	-9.30612
▁random	-9.30619
▁statusbar	-9.30626
eman	-9.30646
▁mangle	-9.3065
▁stdin	-9.30653
▁look	-9.30657
▁redisplay	-9.30664
▁lock	-9.30731
▁needed	-9.30741
▁ident	-9.30769
cap	-9.31001
▁forw	-9.3102
pad	-9.31055
▁fopen	-9.31071
▁float	-9.31082
▁constant	-9.31084
▁ccl	-9.31112
▁regname	-9.31303
▁ansi	-9.31364
lin	-9.31407
▁bi	-9.31446
ity	-9.31462
▁phdr	-9.31517
▁si	-9.31774
▁head	-9.32359
ost	-9.32584
▁columns	-9.32782
li	-9.33115
▁alpha	-9.33294
▁tabs	-9.33462
▁jobs	-9.33916
idx	-9.33954
▁os	-9.33972
▁actions	-9.34374
▁pid	-9.3448
ze	-9.34651
▁fp	-9.34881
▁die	-9.35001
▁top	-9.35839
tt	-9.36213
▁ex	-9.36455
arch	-9.3737
right	-9.37403
dictionary	-9.37404
trans	-9.37429
load	-9.37498
pattern	-9.37505
insert	-9.37513
flag	-9.37515
value	-9.37527
exp	-9.37642
back	-9.3765
contains	-9.37781
min	-9.38409
extra	-9.38416
bytes	-9.38544
nce	-9.38721
red	-9.391
▁words	-9.39404
▁vx	-9.39986
▁loo	-9.40296
mtsm	-9.40605
while	-9.40605
▁author	-9.40605
▁cloexec	-9.40605
▁cpio	-9.40605
▁dispose	-9.40605
▁ensure	-9.40605
▁root	-9.40605
▁sequence	-9.40605
▁component	-9.40605
▁should	-9.40605
▁symtypetab	-9.40605
▁unlock	-9.40605
underline	-9.40605
▁hunk	-9.40605
▁slash	-9.40606
▁auto	-9.40606
▁accept	-9.40607
▁total	-9.40607
view	-9.40611
expect	-9.40613
▁amd	-9.40619
▁dispatch	-9.40621
▁leb	-9.40627
▁pkj	-9.40634
▁device	-9.40636
▁depth	-9.40638
▁kb	-9.40642
paren	-9.40675
▁subscript	-9.40716
▁armap	-9.40723
▁keymap	-9.40735
▁fwrite	-9.40821
▁go	-9.40865
▁filepkc	-9.40897
▁rand	-9.41093
▁child	-9.41134
▁return	-9.41134
▁specific	-9.41134
▁processor	-9.41216
▁icmp	-9.41232
cel	-9.41395
▁limits	-9.41652
▁got	-9.41687
▁closure	-9.41828
gr	-9.41846
▁dec	-9.42057
▁system	-9.42179
▁prime	-9.42179
▁q	-9.42245
pma	-9.42361
dot	-9.42377
exec	-9.42448
▁bitsetv	-9.43097
▁params	-9.43291
▁right	-9.43997
▁attributes	-9.44035
▁desc	-9.44121
▁av	-9.44156
ulate	-9.44886
▁coll	-9.45331
▁pat	-9.45783
▁malloc	-9.45813
▁sysv	-9.46267
▁dt	-9.46349
▁form	-9.46625
byte	-9.47432
▁stabs	-9.47649
incl	-9.47712
bb	-9.47802
alpha	-9.48492
shift	-9.48505
split	-9.48509
alias	-9.4854
bracket	-9.4854
locale	-9.48542
change	-9.48601
hist	-9.48619
command	-9.48626
eg	-9.50333
mmap	-9.50576
▁timeva	-9.50938
▁nul	-9.51491
▁attach	-9.51578
▁tu	-9.5166
serialize	-9.51716
▁advance	-9.51716
▁checkpoint	-9.51716
▁contribution	-9.51716
▁deduplicating	-9.51716
▁dollar	-9.51716
▁funcdesc	-9.51716
▁recurse	-9.51716
▁result	-9.51716
▁socket	-9.51716
▁until	-9.51716
▁hostname	-9.51716
▁howto	-9.51716
▁keep	-9.51716
▁caret	-9.51716
▁two	-9.51716
▁some	-9.51718
▁parm	-9.51719
must	-9.51724
▁lib	-9.51724
▁cwd	-9.51732
▁stdout	-9.51737
vline	-9.5174
▁cpp	-9.51741
cpy	-9.51762
▁disable	-9.5179
less	-9.51838
▁timeout	-9.51856
▁flex	-9.51865
main	-9.51891
▁async	-9.51899
▁decl	-9.519
▁meta	-9.51928
▁restart	-9.51936
▁statement	-9.51941
▁the	-9.52039
▁incr	-9.52056
▁lookaheads	-9.52201
▁reap	-9.52271
▁compressed	-9.52279
▁exc	-9.52316
asprintf	-9.52321
▁linenum	-9.52391
▁pack	-9.52475
256	-9.52546
▁bg	-9.52675
▁sprintf	-9.52697
▁asymbol	-9.52699
▁shdr	-9.52809
▁validate	-9.52931
▁strn	-9.52981
▁interpret	-9.53093
▁truncate	-9.53093
▁namespace	-9.5311
▁bits	-9.53179
▁limit	-9.53465
if	-9.53503
▁std	-9.53773
▁repl	-9.53893
▁searcher	-9.53921
▁styled	-9.54812
chr	-9.55143
▁cpl	-9.55301
▁used	-9.5552
▁buffered	-9.557
▁sigs	-9.56429
▁grep	-9.56507
dash	-9.56764
▁fds	-9.57659
▁mv	-9.57813
ally	-9.57854
newer	-9.5846
epc	-9.58541
tty	-9.59077
ncl	-9.60166
loc	-9.60627
warn	-9.6096
quote	-9.60997
assoc	-9.61048
upper	-9.61049
delim	-9.61066
safe	-9.61087
xattr	-9.61097
delete	-9.61119
compare	-9.61122
glob	-9.61128
buffer	-9.61132
msg	-9.6115
page	-9.61289
limit	-9.61594
argv	-9.617
▁tru	-9.62314
▁conflict	-9.63085
lchars	-9.63143
▁ungetc	-9.64087
suppress	-9.64208
equiv	-9.64216
optimize	-9.64216
▁before	-9.64216
▁height	-9.64216
▁high	-9.64216
▁invariants	-9.64216
▁just	-9.64216
▁leave	-9.64216
▁mail	-9.64216
▁missing	-9.64216
▁owner	-9.64216
▁refresh	-9.64216
▁scalar	-9.64216
▁security	-9.64216
▁success	-9.64216
▁chown	-9.64216
▁combine	-9.64216
▁previous	-9.64216
▁chain	-9.64216
▁executable	-9.64216
▁home	-9.64216
▁second	-9.64217
walk	-9.64217
▁whe	-9.64218
▁iconv	-9.64218
▁getfilecon	-9.64219
scale	-9.6422
▁fmt	-9.6422
▁chmod	-9.64222
ness	-9.64222
▁regii	-9.64224
▁vex	-9.64225
430	-9.64225
▁useless	-9.6423
▁normalize	-9.64232
▁tls	-9.64234
▁kws	-9.64243
▁replacement	-9.64244
▁vms	-9.64246
▁cie	-9.64261
▁randread	-9.64271
▁finalize	-9.64284
▁procinfo	-9.64299
▁dynsym	-9.64299
▁oappend	-9.64299
casecmp	-9.64301
▁shellword	-9.64305
▁fixit	-9.64316
▁disk	-9.64381
▁fast	-9.64389
▁atom	-9.64416
force	-9.6444
▁fclose	-9.64446
▁sign	-9.64455
▁pih	-9.64475
▁mkobject	-9.64478
track	-9.64547
val	-9.64553
oid	-9.64567
▁pipeline	-9.64567
▁undefine	-9.64582
▁hw	-9.64612
▁characterv	-9.64625
▁rewrite	-9.64635
▁veri	-9.64727
▁fprint	-9.64885
▁compatible	-9.64896
▁query	-9.64896
▁debuglink	-9.64963
▁transitions	-9.65086
▁strto	-9.65262
▁pdata	-9.65449
▁cut	-9.65629
▁dest	-9.65711
▁redir	-9.65936
▁fini	-9.65939
hunitsi	-9.6604
▁colon	-9.66049
tell	-9.66099
▁event	-9.66118
▁stops	-9.66203
▁processing	-9.66275
▁invalid	-9.66391
lseek	-9.66935
ab	-9.68295
nodei	-9.68673
glyphi	-9.68682
basename	-9.69192
age	-9.69336
bar	-9.70477
▁envop	-9.70733
chdir	-9.70736
wer	-9.71576
▁tz	-9.73735
▁seg	-9.73998
option	-9.74495
handle	-9.75123
used	-9.75301
diff	-9.75342
scroll	-9.75348
usage	-9.75363
tmp	-9.75368
pair	-9.75374
version	-9.75379
build	-9.75399
prefix	-9.754
exit	-9.75403
spec	-9.75418
archive	-9.75443
eq	-9.75657
handler	-9.75669
fn	-9.76147
egv	-9.7755
▁need	-9.78292
▁redirect	-9.78455
ous	-9.78464
overflow	-9.78502
quire	-9.78502
unique	-9.78502
▁always	-9.78502
▁cluster	-9.78502
▁config	-9.78502
▁declaration	-9.78502
▁expansion	-9.78502
▁factor	-9.78502
▁false	-9.78502
▁flatten	-9.78502
▁foreach	-9.78502
▁identifier	-9.78502
▁lesskey	-9.78502
▁letter	-9.78502
▁remote	-9.78502
▁rendition	-9.78502
▁resource	-9.78502
▁slave	-9.78502
▁triple	-9.78502
▁unknown	-9.78502
writable	-9.78502
▁translation	-9.78502
huff	-9.78502
▁fifo	-9.78502
▁operator	-9.78502
▁heap	-9.78502
▁prune	-9.78503
▁impl	-9.78504
▁recover	-9.78505
access	-9.78506
▁dead	-9.78506
▁whitespace	-9.78508
▁decompose	-9.78509
▁lhs	-9.78511
crement	-9.78516
compact	-9.78519
▁rhs	-9.78525
▁transit	-9.78543
▁terminat	-9.78543
▁prpsinfo	-9.78546
▁backref	-9.78567
▁locate	-9.78571
▁unescape	-9.7858
▁switches	-9.78591
▁keyseq	-9.78634
▁pur	-9.78695
▁dwo	-9.78708
pwd	-9.78741
▁tput	-9.78866
▁redirection	-9.78888
▁wchar	-9.78959
uit	-9.79117
▁remap	-9.79187
▁fread	-9.7935
ning	-9.79439
toa	-9.79652
▁rate	-9.79897
▁modeline	-9.79909
▁la	-9.80107
▁post	-9.80121
▁matching	-9.80166
▁lm	-9.80792
cle	-9.81004
winch	-9.81569
genera	-9.81779
watcher	-9.82708
▁fde	-9.82743
▁contain	-9.82774
ence	-9.84877
rel	-9.85208
▁fil	-9.86106
▁descri	-9.87898
mul	-9.88551
move	-9.91862
compress	-9.91908
peek	-9.9196
align	-9.91971
base	-9.91974
pointer	-9.9198
has	-9.92001
blank	-9.92007
pipe	-9.92019
help	-9.92058
save	-9.92067
rule	-9.92076
user	-9.92153
warning	-9.92215
for	-9.93013
fill	-9.93222
alt	-9.93303
▁rela	-9.93622
▁transition	-9.94051
▁ans	-9.94132
rcfile	-9.94148
▁low	-9.94276
▁condition	-9.94376
ake	-9.94866
▁asso	-9.94921
▁preproc	-9.94928
ful	-9.95167
coalesce	-9.95168
qualified	-9.95168
sqrt	-9.95168
stance	-9.95168
▁bottom	-9.95168
▁comdat	-9.95168
▁confirm	-9.95168
▁cookie	-9.95168
▁estimate	-9.95168
▁family	-9.95168
▁gobble	-9.95168
▁inadequac	-9.95168
▁magic	-9.95168
▁rebalance	-9.95168
▁remember	-9.95168
▁severity	-9.95168
▁sparc	-9.95168
▁subshell	-9.95168
▁synthe	-9.95168
▁vector	-9.95168
▁verbatim	-9.95168
choose	-9.95168
▁comparison	-9.95168
▁intersect	-9.95169
▁operand	-9.95169
▁visible	-9.95169
▁comma	-9.95169
▁lssi	-9.95169
▁tuple	-9.95169
▁stmt	-9.95169
▁sift	-9.9517
▁erase	-9.95171
▁locus	-9.95171
▁dependen	-9.95172
cros	-9.95174
▁checksum	-9.95174
▁fstype	-9.95174
▁cmy	-9.95179
▁quit	-9.95179
▁dont	-9.95182
▁pty	-9.95184
instal	-9.95185
strtoul	-9.95186
strftime	-9.95187
cture	-9.95189
▁ctor	-9.95191
brk	-9.95199
▁etc	-9.95199
▁nonfatal	-9.95205
▁enter	-9.95206
▁sanity	-9.95215
▁digits	-9.95244
▁dtor	-9.95257
▁getcc	-9.95273
▁iterate	-9.95286
▁scanopt	-9.95307
▁property	-9.95378
▁attacher	-9.95381
▁curr	-9.9539
▁mktime	-9.95484
▁fflush	-9.95577
▁ask	-9.95623
vsx	-9.95632
▁clr	-9.95749
▁xmalloc	-9.95754
▁cur	-9.95801
▁eol	-9.95931
conditional	-9.95967
▁wordchar	-9.96159
▁tempname	-9.96171
▁readlink	-9.9624
▁regexp	-9.96313
supported	-9.9663
ctrl	-9.96831
pile	-9.96848
▁ha	-9.97031
substitute	-9.97437
uac	-9.9773
etty	-9.98616
separator	-9.98893
ssb	-9.992
ible	-10.0146
zalloc	-10.0169
▁cho	-10.0295
q	-10.0445
nl	-10.0656
nar	-10.0864
relocs	-10.0891
eading	-10.1093
expand	-10.1158
prime	-10.1193
system	-10.1193
escape	-10.1195
character	-10.1197
bool	-10.1201
fatal	-10.1202
concat	-10.1202
new	-10.1202
abort	-10.1203
null	-10.1205
register	-10.1206
term	-10.1206
first	-10.1206
grep	-10.1207
long	-10.1207
window	-10.1208
tree	-10.1209
▁ignor	-10.1378
▁content	-10.1406
race	-10.1501
▁indic	-10.1514
tect	-10.1515
▁lay	-10.1516
diagnose	-10.1517
fscreatecon	-10.1517
html	-10.1517
hvpairi	-10.1517
interactive	-10.1517
utimens	-10.1517
verbose	-10.1517
▁another	-10.1517
▁bindkey	-10.1517
▁coproc	-10.1517
▁directories	-10.1517
▁import	-10.1517
▁interrupt	-10.1517
▁language	-10.1517
▁pause	-10.1517
▁placeholder	-10.1517
▁precedence	-10.1517
▁preserve	-10.1517
▁primary	-10.1517
▁restrict	-10.1517
▁rnglists	-10.1517
▁sentinel	-10.1517
▁skew	-10.1517
▁stuff	-10.1517
▁wipe	-10.1517
▁yank	-10.1517
▁exact	-10.1517
▁manpage	-10.1517
backtrace	-10.1517
▁title	-10.1517
face	-10.1517
▁cycle	-10.1517
▁wont	-10.1517
▁stub	-10.1517
repeat	-10.1517
▁flow	-10.1517
▁generate	-10.1517
▁operation	-10.1517
▁treat	-10.1517
▁way	-10.1517
▁production	-10.1517
▁mkstemp	-10.1517
▁pseu	-10.1517
server	-10.1517
plain	-10.1517
▁maj	-10.1517
▁debugging	-10.1517
▁gzip	-10.1517
▁cidr	-10.1517
▁fold	-10.1517
▁strdup	-10.1517
margin	-10.1518
▁this	-10.1518
wpref	-10.1518
▁more	-10.1518
▁available	-10.1518
▁will	-10.1519
▁alignment	-10.152
▁star	-10.152
▁edge	-10.1521
present	-10.1521
▁dfaexec	-10.1521
pool	-10.1521
dler	-10.1522
▁detach	-10.1523
sleep	-10.1524
▁proper	-10.1526
power	-10.1526
▁rotl	-10.1527
▁discr	-10.1529
▁layer	-10.1531
▁uncompress	-10.1531
▁relation	-10.1534
▁cons	-10.1536
▁rotr	-10.1538
▁wide	-10.1548
▁leng	-10.155
derives	-10.1558
▁unblock	-10.1559
▁xmm	-10.1575
▁chk	-10.1578
xrs	-10.1798
notify	-10.1925
typ	-10.3323
trtab	-10.3372
▁chop	-10.3494
▁syn	-10.3636
display	-10.3692
truncate	-10.3692
interpret	-10.3692
closure	-10.3694
construct	-10.3698
double	-10.3699
signed	-10.3699
request	-10.3699
short	-10.3701
follow	-10.3702
binary	-10.3702
adjust	-10.3703
reverse	-10.3703
signal	-10.3706
restore	-10.3707
group	-10.3707
skip	-10.3707
bind	-10.3707
item	-10.3709
decode	-10.371
extract	-10.3711
sig	-10.3713
begin	-10.3737
▁kn	-10.3756
▁lookahead	-10.3901
▁rot	-10.3978
▁mult	-10.398
▁comb	-10.3987
▁ski	-10.3999
ession	-10.4
nclude	-10.4001
▁normal	-10.4013
▁lstrto	-10.4015
▁direct	-10.4015
product	-10.4017
immediate	-10.4017
▁actual	-10.4017
▁arrival	-10.4017
▁baud	-10.4017
▁completing	-10.4017
▁difference	-10.4017
▁example	-10.4017
▁exclusion	-10.4017
▁gather	-10.4017
▁modified	-10.4017
▁nonterminal	-10.4017
▁sockaddr	-10.4017
▁spacing	-10.4017
▁suspend	-10.4017
▁sweep	-10.4017
▁triggered	-10.4017
▁volatile	-10.4017
▁wildcard	-10.4017
connect	-10.4017
front	-10.4017
▁glibc	-10.4017
▁octal	-10.4017
▁year	-10.4017
rewind	-10.4017
▁phys	-10.4017
▁predicate	-10.4017
▁ugid	-10.4017
consumed	-10.4017
▁children	-10.4017
▁speed	-10.4017
▁rbtree	-10.4017
▁structure	-10.4017
▁bkref	-10.4017
▁delimited	-10.4017
▁boolean	-10.4017
▁tpoff	-10.4017
▁fontno	-10.4017
▁comsub	-10.4017
▁password	-10.4017
▁prolog	-10.4017
▁mpsort	-10.4017
▁leak	-10.4017
backtick	-10.4017
▁lalr	-10.4017
▁aka	-10.4017
gpu	-10.4017
▁constraint	-10.4017
▁bot	-10.4017
▁minus	-10.4018
▁rmdir	-10.4018
▁spell	-10.4018
▁ltget	-10.4018
▁minisymbol	-10.4018
ava	-10.4018
▁bitmap	-10.4018
transfer	-10.4018
▁syncline	-10.4018
▁pfx	-10.4018
▁suppressv	-10.4019
1000	-10.4019
▁overla	-10.4019
ppa	-10.4019
▁readtokens	-10.4019
▁lega	-10.4019
▁altpipe	-10.402
▁patsub	-10.402
slice	-10.4021
▁indices	-10.4022
▁qsort	-10.4022
▁fls	-10.4022
▁baseclass	-10.4024
▁insn	-10.4025
▁termcap	-10.4027
▁datetime	-10.4027
▁recv	-10.403
▁fnmatch	-10.403
every	-10.4046
gpr	-10.4052
partition	-10.4055
ula	-10.4077
▁sche	-10.4081
xtime	-10.4113
trailer	-10.4282
lob	-10.4353
cess	-10.4599
psinfo	-10.4743
sibl	-10.6104
validate	-10.6395
▁swa	-10.6855
▁trail	-10.6992
params	-10.7028
numeric	-10.7032
loop	-10.7032
pending	-10.7035
mouse	-10.7036
breakpoint	-10.7038
fetch	-10.7038
ignore	-10.7039
length	-10.704
assign	-10.704
history	-10.7041
finish	-10.7041
update	-10.7042
swap	-10.7043
create	-10.7044
empty	-10.7057
▁days	-10.7076
ill	-10.7085
▁deriv	-10.7276
mble	-10.7316
angle	-10.7332
▁kil	-10.7338
▁sanit	-10.7341
ahead	-10.7349
ambigu	-10.735
analyze	-10.735
areadlinkat	-10.735
cntrl	-10.735
horizontal	-10.735
qualifier	-10.735
▁capabilit	-10.735
▁clause	-10.735
_	-11.2536
